import random
import time

import math

GAME_TIME = 10

init_time = time.time()

GRID_RADIUS = 4
coordinates = []


def sigmoid(x):
    return 1 / (1 + math.exp(-x))


def ReLU(x):
    return max(x, 0)


def ReLU_derivative(x):
    return 1 if x > 0 else 0


def dot_product(v1, v2):

    return sum(v1[i] * v2[i] for i in range(len(v1)))


def softmax(x):
    largest = max(x)
    e_x = [math.exp(i - largest) for i in x]
    sum_e_x = sum(e_x)
    return [i / sum_e_x for i in e_x]


def cross_entropy_loss(predicted, actual):
    # Adding a small constant to avoid log(0)
    epsilon = 1e-15
    loss = 0

    for i in range(len(actual)):
        loss -= actual[i] * math.log(max(predicted[i], epsilon))

    return loss


def clamp(x, lower_bound, upper_bound):
    return max(min(x, upper_bound), lower_bound)


def quantize(x):
    return clamp(round(x * 64), -128, 127)


def get_weight(ws, idx):
    s = ws[idx] + ws[idx + 1] + ws[idx + 2]
    # print(idx, s, (int(s) - 128.0) / 64.0)
    return (int(s) - 128.0) / 64.0


def get_char(x):
    a = quantize(x) + 128
    if a >= 100:
        return str(a)

    if a >= 10:
        return "0" + str(a)

    return "00" + str(a)


PERSPECTIVE_TO_PLAYER = [[0,1,2], [2,0,1], [1,2,0]]


def get_inputs(board, player):
    inputs = [0] * INPUT_SIZE

    for i in range(96):
        coord = coordinates[i]
        if coord not in board:
            continue

        c_player = board[coord]
        p_player = PERSPECTIVE_TO_PLAYER[player][c_player]

        inputs[p_player * 96 + i] = 1

    return inputs


class NeuralNetwork:
    def __init__(self, input_size, output_size):
        self.input_size = input_size
        self.output_size = output_size

        self.lower_bound = -1.98
        self.upper_bound = 1.98

        self.weights = [[random.uniform(self.lower_bound, self.upper_bound) for _ in range(input_size)]
                         for _ in range(output_size)]

        self.bias = [random.uniform(self.lower_bound, self.upper_bound) for _ in range(output_size)]

        self.activation = None

    def feedforward(self, inputs):
        self.activation = []

        for i in range(self.output_size):
            if i < 96 and (inputs[i] == 1 or inputs[96 + i] == 1 or inputs[96 * 2 + i] == 1):
                self.activation.append(-100_000_000)
                continue

            self.activation.append(ReLU(dot_product(inputs, self.weights[i]) + self.bias[i]))

        return softmax(self.activation)

    def init_weights(self, ws):
        idx = 0

        for i in range(self.output_size):
            for j in range(self.input_size):
                self.weights[i][j] = get_weight(ws, idx)
                idx += 3

        for i in range(self.output_size):
            self.bias[i] = get_weight(ws, idx)
            idx += 3


class Move:
    def __init__(self, x, y, z, passing):
        self.x = x
        self.y = y
        self.z = z
        self.p = passing

    def get_key(self):
        return self.x, self.y, self.z


class Node:
    def __init__(self, parent, last_move, pass_length):
        self.parent = parent

        self.children_start = 0
        self.children_end = 0

        self.win_count = 0
        self.visits = 0

        self.last_move = last_move

        self.pass_length = pass_length

    def copy(self):
        new_node = Node(self.parent, self.last_move, self.pass_length)
        new_node.children_start = self.children_start
        new_node.children_end = self.children_end
        new_node.win_count = self.win_count
        new_node.visits = self.visits

        return new_node


class Tree:
    def __init__(self):
        self.graph = []


def ALL_NEIGHBOR(x1, y1, z1):
    return (x1 + 1, y1, z1), (x1 - 1, y1, z1), (x1, y1 + 1, z1), (x1, y1 - 1, z1), (x1, y1, z1 + 1), (x1, y1, z1 - 1)


def SELECT_VALID(lis):
    return [(x1, y1, z1) for (x1, y1, z1) in lis
            if 1 <= x1 + y1 + z1 <= 2
            and -GRID_RADIUS + 1 <= x1 <= GRID_RADIUS
            and -GRID_RADIUS + 1 <= y1 <= GRID_RADIUS
            and -GRID_RADIUS + 1 <= z1 <= GRID_RADIUS]


def set_node_coordinates():
    global coordinates

    for x in range(-GRID_RADIUS + 1, GRID_RADIUS + 1):
        for y in range(-GRID_RADIUS + 1, GRID_RADIUS + 1):
            for z in range(-GRID_RADIUS + 1, GRID_RADIUS + 1):
                # Check if node is valid
                if 1 <= x + y + z <= 2:
                    coordinates.append((x, y, z))


def get_diameter(board, start_node, visit: dict, use_visit):
    def neighbors(node):
        # return SELECT_VALID(ALL_NEIGHBOR(*(node)))
        return NEIGHBOR_LIST[node]

    def con(node):  # Find connected component and respective degrees
        # print(node)

        if use_visit:
            visit[node] = 1

        connected[node] = -1
        cnt = 0
        for neighbor in neighbors(node):
            if neighbor in board and board[neighbor] == player:
                cnt += 1
                if neighbor not in connected:
                    con(neighbor)
        connected[node] = cnt

    def dfs(node, visited=set()):
        visited.add(node)
        max_path_length = 0
        for neighbor in neighbors(node):
            if neighbor in board and board[neighbor] == player and neighbor not in visited:
                path_length = dfs(neighbor, visited.copy())
                max_path_length = max(max_path_length, path_length)
        return max_path_length + 1

    player = board[start_node]

    '''
    try:
        player = board[start_node]
    except Exception as exc:
        print("node empty?")
        print(exc)
        return 0
    '''

    connected = dict()
    con(start_node)
    if len(connected) <= 3:  # must be a line
        return len(connected)
    if 4 <= len(connected) <= 5:  # a star if we have a deg-3 node, a line otherwise
        if 3 in connected.values():  # It's a star!
            return len(connected) - 1
        return len(connected)
    if 6 == len(connected):
        three = list(connected.values())
        if 3 in connected.values():
            three.remove(3)
            if 3 in three:
                return 4  # this is a shape x - x - x - x
                #                     x   x
        return 5  # diameter is 5 otherwise
    # For the larger(>6) ones, diameter must be larger than 5, so we just return 5
    return 5


def score(board):  # return current score for each player
    visit = {pos: 0 for pos in coordinates}
    scores = {0: 0, 1: 0, 2: 0}
    for pos in board.keys():
        if not visit[pos]:
            d = get_diameter(board, pos, visit, True)
            if d:
                scores[board[pos]] += TABLE[d]
    return scores


def hex_to_pixel(x, y, z):
    xc = round(2 * (x / 2 + y / 2 - z))
    yc = round(-(2 * math.sqrt(3)) * (x * math.sqrt(3) / 2 - y * math.sqrt(3) / 2))

    # print(x, y, z, (xc, yc))

    return xc, yc


RESET_COLOR = "\033[0m"
BLACK_COLOR = "\033[30m"
RED_COLOR = "\033[31m"
WHITE_COLOR = "\033[97m"
GREEN_COLOR = "\033[32m"


def softmax(x):
    e_x = [math.exp(i) for i in x]
    sum_e_x = sum(e_x)
    return [i / sum_e_x for i in e_x]


def print_board(board, move):
    mat = [[-2 for _ in range(23)] for _ in range(43)]

    for coord in coordinates:
        xc, yc = hex_to_pixel(*coord)

        # print(coord, yc, xc)
        mat[round(yc) + 21][round(xc) + 11] = -1

    for coord in board:
        xc, yc = hex_to_pixel(*coord)
        mat[round(yc) + 21][round(xc) + 11] = board[coord]

    if move is not None:
        xc, yc = hex_to_pixel(*move.get_key())
        mat[round(yc) + 21][round(xc) + 11] = 3

    for row in range(43):
        s = ""
        for col in range(23):
            if mat[row][col] == -2:
                s += " "

            elif mat[row][col] == -1:
                s += "_"

            elif mat[row][col] == 0:
                s += WHITE_COLOR + "W" + RESET_COLOR

            elif mat[row][col] == 1:
                s += BLACK_COLOR + "B" + RESET_COLOR

            elif mat[row][col] == 2:
                s += RED_COLOR + "R" + RESET_COLOR

            else:
                s += GREEN_COLOR + "G" + RESET_COLOR

        if s.isspace():
            continue

        print(s)


class MCTS:

    def __init__(self):

        self.board = {}
        self.player = 0

        self.iterations = 0
        self.sel_depth = 0

        self.root_node_index = 0
        self.max_time = 1

    def get_result(self, current_board):

        score_dict = score(current_board)
        result = [-1, -1, -1]

        small = min(score_dict.values())
        large = max(score_dict.values())

        count_large = 0
        count_small = 0

        for i in range(3):
            if score_dict[i] == large:
                count_large += 1
            if score_dict[i] == small:
                count_small += 1

        # First place score
        large_score = 1 / count_large

        # Last place score
        # Two players are tied at last place receive a very small bonus
        # Three players tying for last place will not occur, since the first place code will run instead
        small_score = 0.15 if count_small == 2 else 0

        for i in range(3):
            if score_dict[i] == large:
                result[i] = large_score
            elif score_dict[i] == small:
                result[i] = small_score
            else:
                result[i] = 0.3

        return result

    def descend_to_root(self, node_index):
        while node_index != self.root_node_index:
            last_move = tree.graph[node_index].last_move

            if not last_move.p:
                del self.board[last_move.get_key()]

            node_index = tree.graph[node_index].parent
            self.player = ((self.player - 1) + 3) % 3

    def selection(self):

        leaf_node_index = self.root_node_index

        depth = 0

        while True:

            leaf_node = tree.graph[leaf_node_index]

            n_children = leaf_node.children_end - leaf_node.children_start
            if n_children <= 0:
                break

            best_puct = -100000.0

            policies = nn.feedforward(get_inputs(self.board, self.player))

            # SELECTING BEST CHILD
            for i in range(n_children):
                child_node_index = leaf_node.children_start + i
                child_node = tree.graph[child_node_index]

                last_move = child_node.last_move

                policy = 0

                if last_move.p:
                    policy = policies[96]
                else:
                    for j in range(96):
                        if last_move.x == coordinates[j][0] and last_move.y == coordinates[j][1] and last_move.z == coordinates[j][2]:
                            policy = policies[j]
                            break

                exploration_score = EXPLORATION_CONSTANT * math.sqrt(leaf_node.visits)
                prior_score = policy * (exploration_score / (1 + child_node.visits))

                value_score = 0 if child_node.visits == 0 else \
                              child_node.win_count / child_node.visits

                puct = EXPLORATION_CONSTANT * policy + 0.5 if child_node.visits == 0 else \
                       prior_score + value_score

                if puct > best_puct:
                    leaf_node_index = child_node_index
                    best_puct = puct

            last_move = tree.graph[leaf_node_index].last_move

            if not last_move.p:
                self.board[last_move.get_key()] = self.player

            self.player = (self.player + 1) % 3
            depth += 1

        self.sel_depth = max(self.sel_depth, depth)
        return leaf_node_index

    def expansion(self, node_index):

        node = tree.graph[node_index]
        node.children_start = len(tree.graph)

        for coord in coordinates:
            if coord in self.board:
                continue

            tree.graph.append(Node(node_index, Move(coord[0], coord[1], coord[2], False), 0))

        # Pass move
        if node.pass_length < 3:
            tree.graph.append(Node(node_index, Move(0, 0, 0, True), node.pass_length + 1))

        node.children_end = len(tree.graph)

    def simulation(self, node_index):

        # node = self.tree.graph[node_index]

        current_player = self.player
        current_board = self.board.copy()

        pass_length = tree.graph[node_index].pass_length

        # print("SIMULATION:")
        for depth in range(MAX_DEPTH):

            if pass_length >= 3:
                break

            moves = []
            for coord in coordinates:
                if coord in current_board:
                    continue

                moves.append(Move(coord[0], coord[1], coord[2], False))

            # Can only keep passing from here, so just break anyway
            if len(moves) == 0:
                break

            good_moves = []
            for move in moves:
                current_board[move.get_key()] = current_player
                d = get_diameter(current_board, move.get_key(), {}, False)
                del current_board[move.get_key()]

                if d < 5:
                    good_moves.append(move)

            if len(good_moves) == 0:
                pass_length += 1
            else:
                pass_length = 0
                random_move = random.choice(good_moves)
                current_board[random_move.get_key()] = current_player

            current_player = (current_player + 1) % 3

        return self.get_result(current_board)

    def back_propagation(self, node_index, result):
        current_node_index = node_index
        current_player = self.player

        while True:
            if current_node_index == -1:
                break

            current_node = tree.graph[current_node_index]

            # last_move = current_node.last_move

            current_node.visits += 1

            # Take the previous player, since the current node's value is based on the previous player's move
            previous_player = ((current_player - 1) + 3) % 3
            current_node.win_count += result[previous_player]

            current_node_index = current_node.parent

            # rotate backwards in back_propagation
            current_player = previous_player

    def search(self):
        self.sel_depth = 0
        # print("PLAYER:", self.player)
        # print_board(self.board, None)

        selected_node_index = self.root_node_index

        self.iterations = 0
        for self.iterations in range(MAX_ITERATIONS):
            # print("iteration:", iteration)
            # print(self.player)

            self.descend_to_root(selected_node_index)
            selected_node_index = self.selection()
            selected_node = tree.graph[selected_node_index]

            # print("Current Node: ")
            # print("Score:", selected_node.win_count)
            # print("Visits:", selected_node.visits)

            n_children = selected_node.children_end - \
                         selected_node.children_start

            if (n_children <= 0 and selected_node.visits >= 1) or selected_node_index == self.root_node_index:
                self.expansion(selected_node_index)

            # New leaf selected node index, make the corresponding move
            if n_children > 0:
                selected_node_index = random.randint(selected_node.children_start, selected_node.children_end - 1)
                selected_node = tree.graph[selected_node_index]

                last_move = selected_node.last_move

                if not last_move.p:
                    self.board[last_move.get_key()] = self.player

                self.player = (self.player + 1) % 3

            if selected_node.pass_length >= 3:
                simulation_result = self.get_result(self.board)
            else:
                simulation_result = self.simulation(selected_node_index)
            # print("Simulation Result:", simulation_result)

            # print("Back Propagation")
            self.back_propagation(selected_node_index, simulation_result)

            if self.iterations >= 20 and time.time() - start_time >= self.max_time:
                break

                # print(time.time() - self.start_time)
                # print(self.iterations, self.sel_depth, len(self.tree.graph))

        self.descend_to_root(selected_node_index)

        # Return the best child of root
        n_root_children = tree.graph[self.root_node_index].children_end - \
                          tree.graph[self.root_node_index].children_start

        best_index = tree.graph[self.root_node_index].children_start
        best_visits = tree.graph[best_index].visits

        policies = nn.feedforward(get_inputs(self.board, self.player))

        for it in range(n_root_children):
            root_child_index = tree.graph[self.root_node_index].children_start + it
            rc_visits = tree.graph[root_child_index].visits

            if rc_visits > best_visits:
                best_index = root_child_index
                best_visits = rc_visits

        '''
        print(self.player)
        last_move = tree.graph[best_index].last_move
        print_board(self.board, None)

        policy = 0
        if last_move.p:
            policy = policies[96]
        else:
            for j in range(96):
                if last_move.x == coordinates[j][0] and last_move.y == coordinates[j][1] and last_move.z == \
                        coordinates[j][2]:
                    policy = policies[j]
                    break

        print_board(self.board, last_move)
        print(policy)
        print(max(policies))

        best_policy_index = policies.index(max(policies))
        if best_policy_index < 96:
            coord = coordinates[best_policy_index]
            print_board(self.board, Move(coord[0], coord[1], coord[2], False))

        print(policies)
        '''
        return best_index



TABLE = {1: 0, 2: 0, 3: 1, 4: 3, 5: 0}

EXPLORATION_CONSTANT = 1.41
MAX_DEPTH = 30
MAX_ITERATIONS = 10000

set_node_coordinates()
NEIGHBOR_LIST = dict(zip(coordinates, [SELECT_VALID(ALL_NEIGHBOR(*node)) for node in coordinates]))

tree = Tree()
tree.graph.append(Node(-1, Move(0, 0, 0, True), 0))  # Root node

real_board = {}

mcts_engine = MCTS()

current_time = GAME_TIME - 6
move_count = 0

predicted_total_moves = 45
start_time = 0

# current_time -= time.time() - init_time

INPUT_SIZE = 3 * 96
OUTPUT_SIZE = 97

nn = NeuralNetwork(INPUT_SIZE, OUTPUT_SIZE)
nn_weights_str = "0340442271302312041560771590401352480180441960510161181532410292421551291790630161362092101902431540360812131251901910470770542321030350412452290731331431970692491960940312140971611882390402502130110451301341980200470662432191462040611691641412432112471940021380250510020292530630801321650221320680311231781232440710190031392200141430471811861100990631292220500711320852142151110871460831282191671572142532040702020061242242040390220300181791390642302300050600760371012170271801440580150572120182371882480361162170701700230180740430940052331451510800041870120482222431470442381621512492251382220981850490030490532030630131351990360730450152141560381041632492210651500830851571272190232050520591991732170990991992031600600622151521000750140941081830480231030251302331280421050462212120430761211870110172380840202391831030882211220242100122452362482451031882150970790960041221061721610740182210770912262231410800991000582311952390720272111110652370931111230030821901450701652352131531740412110350722201741022281290920790020850061650750050082462491161861261670841392160821450751481702441351362242451372042540691981721750900122152280752340601360560090740191941922150950401351631450022201951522281721520971912130160161311690742190620860570441850221751080900291490021901792421960141522220781100652542060551730510880570270120451050911272332462331830101921190870570671172492060842542432401501571410692471891350141770971750571261130272061360890130572382091171191430832370271921640511541782020532411120320781870161891511660410630170441820441701291612341310210320351860381620262020350381282390320442020570880771721901660590722370871390282172200341562202120210781281151401421621441872061352230901470690352330860850742302360240510711952262071981892370311961911561522422430442230610631090071081690321490492482372091380621760361261611392242391192011142431630460030321132101970370511271881491412221760360190371602040821441831072302490260811171731980551881322231150350511980242011811961072031712182000731781730972372031981021271501381631441811550981461830461822120712270430861970452250210991080371602011520670312510530061291141541031730711141992522232451921201090871330681990260050821700701400670800012521302130732521500661031740521192470642262020732071680771702240521191161831752461721690821362131412181411091440401501462310060370970530040631631502292411072001490821210421952132540240671770431612190741720661512062410211322540860442481741152220380960110382220780931571321420722230530791891511310900671641592432011042491041841861071260180352540412170230771110531171852010690040570830172461531022510072330291950142122470672430330740660100622481660861030712020651240981881230570430610440281552212460860030130131870510470732250250582481501961050911132431850801580231391710842271310781502531420180490821770461231512081420192311690322080470092200182530501190531872191110130800722150501082491621592150141511241880990842071881010252412311412490430422400931850261420450180070780201171361671150990221710930371320480671900601410711240101572191241782471901822480512251230350701070520610330870931251360522071200341971840891161791421711602382090592140142381160270032551890532061781052250522201111000711942530780562232160800321521341920482201000721911221370610610601151242072500420600501670560112371861060712192172191001430910041461211720201961570050981460802101090630141860401860630930771651211260401720231221541650291820791930550032440501420411531792090792251341200530350492231621752541851641860770531872420541312402390391910630190940182151341711011621712390522321360061031802121062191301831061560631670500492540861711120840690982220410532222170851571331990870780031461352092270381521611690622300690731222380630991471971770720020440341970090800130472361170920621771801570222390801522361882240380272472130170701871530222181810220650820101951561780161001960980750712271590892522301670020912552350610490190530351152052090280200872350120150790121020160562170532132220561450020422302462411112260451981162542172250640171090210750490742121332151920220470391590571530532420111701261082451741031531601150931530771240281470651781900311452382060431100301361861100710360370391402051542301311570501892470261090511321981670761901670961322330041811291742271912441101471862272010770921130380721081500400531681611071301350582361880100031202032312361190730211802000081772200272040752111290842410090180150302132452151792091630730090020872280671351751002500591931081010921382082341120061942342220771051301470732362182542060961860580951430021992222461321831842271100032031790961132410472001611580252272150261900262012230492022321151350450510631731510300881520372470080131481321130812351140811931001000071210021281090980060490310450911361181071070051281031862140341960401461591840912170400391900861162421340671360580851900802422331781361602221511511051640781510810142441692521510621272392111100721700860382141780600132171832530661900132251740571821891861831330682152511871550911271262160132012371581791111381561292470352422502122042191991500621672160090581112320930190352371991842320011762471752080620210642021342180551941232380971052171301801270071780531780760752171521621940320391802351240751921481561171061500451921480200241170500271930930111061642491862442041111882210041460680200831101640642321072491552362040641760111200821442231890162510681791830711261432060891261610530781922141262041942061480402000890260611951630672110732070751861220411460590531010641890880290451210820222342081961020741741080300851110501821160741980271810281282422161431271340491631092190570191560190100971991750141631422450691911851352381061920571390070041881062202382420630841020941552360742351482490781711391600061151651622031001570941591562142292150530092531312512032060611911550152182411132120691032231820380461520110110770410041730820791281110742000500720470190550622012290871361311692492492272040202061151502300410050640751112160330920870541940280980701362280971931060920691200071271270322210182071590181482031880812122090241550082161581352090840240241482042340901000170612242321941041111570452441992280561102011341850611702452441321212291732230962541230130062362151670651382041931131510382542262410530171372481650661631530972301021490941871400970460701432001480522040830361271611790091850672471081291651510532280850201452370701452061831272251711431212471341131092320650922301701010221761801812511220181991271291971421120431710971941210610411180551170581381542160992130991910610902411061122360561011160681320811251692070540621840410292320831711171211450081862461112481380741041802382471911802441070481240791312291191390230701541350502371201030620950480081382412091051970391420261951710220361030020811901690210360580492351991350582531741420971760621030801130220170110171520890810120881581712430031681450960181542090061161771801511532120351601370930331531922250350661610601950481900850430751921252512022471631812031582330861131040221351650140961221132031941822350241190441820550862162121431272132092162421830600762271721111910672431920752202530751712341261730691960402030511052002240672341401100550821421072401611752480581040841201420380771550261051240070212100691191422091040612441751670410021792101400251281201140780611430022150400721460721641391782122481830622110521922231051162182141052511070632210591370162420532421481231220320722051260231380490171102052422371762330141530820330550970512210102432000650131021050490350940662530182010332390701430981121640920550750800090962330660590890360901191822311780210830390631981491232382081442191230470131620021401892082370700210141360262201212421541740961020451312111940891611510462140932041292040802282181311260421760142381141991451091950110740441890930451631432360211451040102471860562501341321571641251290260670650802171080820580700332251870281120260980681431601082321852410500060912172070402481170420842321750610831291371750980472072301931770581901532162202081982530600452210522470851281681110122410911812062281172142140840930680992200970780571652071632240411611970550172492190530510262311192301751200342411061541921560200782461661110741821400270340781821020751841350192411230530981630151312060812340661160351932431542481861760162000270312530092431240781011720280750561021360770060241940460682102162381320591801381421840050251111051880930071661612120520931251062162432222230120521580942170581361810140700240221312180520912042530740570480631932040670640142211841641361361132150621862241920432281870132391411060430411150721681240572482430080042420122250901871492080891112052311201830500582550122380941960750570672480881820240701901580290321770312361610232370650491890370942200600070080891171671520482221830392221070180871590530740092131140641310941191721181261650311450342491801951821140771462380762290180700680270530530960651160131401982102522312011251492462372300651981781080572411522460701910300581741131262422471511132380511291082121640812000701980592420600121272020481902150921761261420291732300111271640551752481961542121771422501011401891191870051751720552312110551781060411240560020921692202512402162292351970282530572390320031241761871070111971742320820511130651572230200480210841910590330970161300232430071801431562321580480300531511011950561100790941671841090881871520620911331420452412301521252012441991172091590232352540071591051180941382240022540122382032250360091341561101840100080421532312470572430680032022250541920111250960932352032090951620221992511021321291920470090822411290400831061660112040151741522492091451702390792131262001691281482482150570500872262111730430512210642391060741670550460161591960442540841750090312500420951041450561372260170732331000480430872460782520362111402231052361341351052240532150521670131040711821512512402201410471512032390771900751220910892201400440592221580161292210592212261770412012452242511500160990381041570291620831272380801340711071981701080782120560211470452212250700431090361572081411211100061510811691242481701480571041370660171561060752222122540702230780112050720921350891821720210312272360732491430762431410691020981170710972182330810901980420060760440221000260030730771661172370390280960602361932011090830811902381580162292381631372311211991650422540190712161631440172172111430751241212061590360821160720201290780020131930031172351172461791472200871352530320162091270032270552010350581521830160950761612172521592181240410732460200190700880201112422051760400691761630111210692340862391690182090922410701821011120311632440302191000500832230932121691131101860221981290922132082361610521350422181901521830320560502530072060342022352170570610431830811170560852161030542521832191001071760382130420871350031821411942071110532441701150071971651311821330191060681321360901430440420161681650031381212020711780911541570070681251011851790912172350452410891820751271771900960622171462221451840371752070231951462440551992491060991670831862302340742031692210822350142112281391611700411460261612501460612031051461231492021252102231051170350570121222472282482392401482242311951241792270810091112150261811891411631511252520982532200350772110330220290571190410662271931221731130481442200551312161330350520740950881460371690342121612020181340670582172240820631282041142380391220731741990472091400241751832190171332401960311621430592540762031741172240620620981362372151220781791902290312181342260922460261220971981921662241560420832290272081641990351090151602291202131140340731001852420082481750330842322522001801300390502461261341060871250941331330241991511620421120460261760520921560040681681781140832342280820190321741970321341370080610901241870830661212372300951900802202441251302530731472420180971930662091901810771591442130092531321721511591761622170200490282150742461842261541851940681280261490440771921850700961371711791471870150530822472230592431382121561690080362252020171862431201431411181042291471402510292030090371120281790282540881861131570650880111821470852512470660101641590192441342542391191761131920831922202382432420731621152321361792001902400921591061820721310420891100510911321062330780920251690580822101822450140510100990941981391791150320891691071800521331582380801521611070142381680960640532340641610232231520461761470450891861252260312100090960480891102151371710040810732131520281181250221102332351881780821830461542051930182330590570920161070571391580771872042310132081470151620371291951350632210712012550651410531750431320161472490742201112330311802060170341321891801731720912322001290340332210091431120262450120440591951871542381791501201471871472010872181430431010220130152091161750422152121470471192412350211300280781771501761831480131662430561550240281852282380060592112111740081281731430111450792372122090971070630721130790941700990321551151101790801451141110040280651052001291141311351710280551412430900632110700331370862450140560332290152421552421781222250892032260452501921302510120270250120592051920630162262020522451802171591832371971271492142340092151851661160132130361221380551371430690030890170600450480170562000312502212090961920232432141321431350740500042260091780430711391330472372240880601171521771881792101231301461232481060490940330330321680481510511591682370341582431572321812380832161190521061551941321231031601921120390750631421712040451740800432112070610141110662481491521261701460602011870931731030440870220241312340750361382171882130281890781282002012220451221141640390531300020480852260330050311941480840412151661280181220801982212500331270131522392370102300060332110980912150131010081542532411471800652241250872281500412401061901200820952400080642322131870221820280590521301721222360350980320950561311520052062302461252412040580761540801441121532161271930141891900941380651531190371831331181011831280332441460870612382471210611770060091701520032090901120440081361251860600090431971200831280981652180400902290162472532021251321632320171240021370740450182220682131241802281762471860490620140450040421331301490681622121082110270300351922311121651640571222171830170431021231512451711270461070450170812241552171570500430172292172461172270210480561951892260351951140240492430841761810701291602332001272391520201991832440160902251682440092181221832130522181462521840941032540180921012361520260971581532361560311052282180171941631920861602231301010432491570122070581441992272100851601480130051232500101721021420721080620962110941530731880660200490240150370350451141340562531812501151172021691380891281241491770960490671152551512431940561671511972500180331362160721622112080711762141740360240272191342001960370111041060580682201741950742040691530870391811071462312421372502320662310580242141402040781810511600320092510830951532150601941992191471282301990782442012461500900061140300192010191971851892090600111771940341981620060770971052222450531021982351532020230321322510262491350571942221631250930652311630200112102511750331880340862322462071601461040500270370782060050630802372080042412081262310350201731240092550580980460280021740680730960420782380770301060641560991200571411050881170040020631091511691011092540251112341410351701752361192180951480341740741400240951311022320791950111942132060280840770292010722370740611890710941911602000860601581260921392510032030061962342491402431680262030140571002240912530660871181081811991161420241500481570870880241410530370300930250331031540850530260051692061450611810702080312140170760271160260920921621700390861530252510372460752201930351800071870161840451482310402121880461500340902111300090442440102310822301492500200772382451361812240940160752251370741551502090160831780771131960290261542070221620660752391141022130510062292112320910060521592540242170881582212121850960970992010322262400200971752060142170961150590092121692401661090151990511091622490310191611032170591800221691360072410462540651321870690040960110210521510720220521151221071341981781210830751991540841702001370412402241240502292490340640932350581430020870202290821960251492161170241412521720362542291630560302520461370110391162490741962500681230022032312541131491822370481191870200410460131820051971842312120082251351130771541522042230990150211571282150630860961840621200760872001101251970332020041460031891052322502270441630251302361060032221501291312051610371431841841532411891430850781730661201832070140741671520332201420252080861160750100711301150060460631690690201772281481461051890901581592511140570732441120262531431762230151402130522162031080902190020512161291012211042411480612312512502470961900050912282011100041762491450501802222370782300241411382131420921131032360750782300852050862060310391522480950471700092062001761530610331100091701552491920680490680880930770960761741002112161671310051710981651211701240712051770511672031091892252210320960931541571260121621912471211771540710640301211081010492320391122491260640792210372381551570051591780222431801472160050191561480241551940482040160321712231160190432111630331061402352020050271582041200680190502011491620212470171542471820480041032370370811651822101351320980970390590260331410170710602290992370441051952391222091180831250421631280181590210402330421661900590600782070402351091571570381910821120710221762341892460702520910061561410450840050541852351882371341670741141021380851301401411400892201291890380092091442221080170990271611861290692530460420141931040400710522510691322081241940191611790851181452220081161720832442051590201780751770171400260220681860631160161860071212522190200781320520200811422122202440231651330830750501430660941280320371081771760780142282091230600851310302012460662070590071651512240431181930751360641602020541241140611591980580052251472291692471021880091391482120140360192480790442320272270871071641951861400251830891150981130020761830230411990351910440031330530841721301670080281220750380910301672120321920771751451710332270820602380642140750762362430231901142410690240641681751972051941061691031061411662142170440741992471291151580101290931700231821201510171940080761731101781511721212482110911910951611551380580682080981692292240231141170580192151471970232112480771461161721740711861510890371080531190970111231001681120052260882370331601340610960941232331712240430682011010832131400441840692130572281091200221520742131271252240461032450151380850511910591081210611081701251000361460430852042300281841360310710581510640070642131981131341750950981762280921771900062081542030070130421422291330682290612532490280280641230190571172030500421091220352011540151650782132251070691660030771890610151830390302511120670120130630270151401730442230740072321001150801521911041901440520722190922400170040171481041300141810201151811622080281051601872422490820492300140180642541871451630062521610191351051901580210971832212350430691341811302390652391640560560270250360831631480550341120202171331990230181600351760800762390832012211022251090691080362100701672500120601610191111621682402131622341150631720782360320281422221600812430361230211040892171030061741611251240380991861222140330620771171441061910280850290982480420050581222180111490161122511622201910251150230241782240171961371440441980341190072340320191132212270580041170870502070420510831551370440790701520560551450040510271571461890222162391780292191482401252332330472321211671600420420721992142052370981581082212351501372532402250621280481952392382520370270161950060030391750671290772012050132062502251092281811851740121521630862030660031510921242290870610550640931860211150371730221570841571322321270440231320252351451581430861911921001071950931681070022410231900860880580241800961001252060322522271642380120801070341290440802062040401031232140211660881762501360862250070100280181261291840911701931021692400391580071671211691371180672200682290972281191380552271331140280141910962481850781031111500980390822450140771920830411061050300162260910580480161540540651101850561551002032241012261250371561510802261641371601072480190051072370930381462001852352212460820690661471812262030361030981591702351461332351430680681942350761252222231841890110891780370040422412192491082351870421911511371451751110242060550910392412070330700360170851351900351662361602431261162221511060521731170842132501610071492471151922380430942020261010690721102310130261700272152350852141451331631970980571021741850701832381381950902521841062220730450362501411371970371021201950810830861671510902002351340821160372010290632212170742042260161251090490271162410522070500270621951492020290510640550101311560640100410900621690421521251991160741940161050091112490820681592430340930981721592520500282420751801571731300940260712082441210352311641552010800140652040912521180470150981072290850221000831740240870682100151340790081782130461020161480382401912031190502230181651250951851970202302290840591362120991802542200801830151780112030490570511141931011011602111380712510941112512471771772310232091291881881860360151521931281811811331361711772351951422231301112262051282270080861210722212421071841771370741972320291682251732080072121321861350440572501062271822021930280271070280870600570021320962170720501680951581001731440990291640201481180270201510501071290460862090942540280470582051041522122440831820302181080920190930271491191702311141291400181620960430660981042090731841900090452122300800420080251151630251640441102062211330121640111661301250400241802090110150521701071190120292130401021982500932540160421882400462160901491481080242250940511191751420121642420522020332031112120021070670610300150620542121911200670740191740390802192330540790911231981522372481821661101652530391201092530022530852280660112112151662070642060381671101141881261730581671011261872280661511921800492251942521351320130310980432520102150411891070822402511941471031051711031070510460681571321291880761260240791670711261800991271570490530291331691841132301811161450220401940021291500232302060590870211310322441041640190050091771471402001112030962190351310941601910800800541380781470310561390381060180441220090791252262541832070311581182072372370130411601611571791510642002090052421770521511070481931990501690331432100260170941641401022091381140081102111141060881152110982032150450370111051412421620861752050342080150862201140950802292420171270402072201662302301581851091511071552300871320512040620120162531250950080022120580942170882320292452050262092362320441190480931331182500952121860092471160302361480361022331201562450841771321122161071610400771252350961920101781990301560442361851492230282000222391851401831860272480582262080201001652482070620130022032350521121682161340200862300450870251540681740581371021832262481240020622060720730021630730230291170831081710970430590251380290081642261340630121581372032110260592422490312262540791900031760560681561871861772310421180071830820211710470020982330261151570422541881860982040171442182521221202012492531181091032192432102530380700970350530191371532451531571980100811002401711452141071051250250610470521460691681930411170692320200190511612080762010310111992530171772251441992421370590331082460682450841241160282021792401741530202371612480901210911080172220090351320600541881170850562021880471351741530510792081350372211720321760060940201191491201862110422301721440500052292440551261760640881710451402490452401071471201121370070270891022401180110052241051701951221831982031101001560681321041541962050910160950190382471090772230952291521270591600161900071520951612480870741111152001841121862371702390240532312260630401542311930761022280490761901630541791100880870162020900251460541881531661772110491272360810851780660881812321891261220740312242270792090540570212190490541200481051592152462371851431340080911710870530320892460582540371751570750911250760802511540610210410120251910020092531212411530022152471221332192170372542131971311322051062020541730421742140111711580291531171460171270732401251020830761051392511390021030582301381960792072201210041721471150312130990600081111821070230540972550572420622521140281192442091752052032331620751332122421460692251211510520890712042292462420850552040230921462310921052351511370371091200351982001900622541740950842542271440761571721260650200281691780990731221421212041340922110140270741132290761242090950260192180270220530621801761111460980111970361381451890461360132350740971441542041671532161130311091810111270450580892531131782372361980501261730220132410241512082382320460990170391901260861540160372260062380892301991191891911612500700520942060850441902421791641801561552311350821740712132070980491102081410090941361890421801300880291611041130260441630431731870781990022451611182181060351820011721322230240200262521970040790292130182511740400830692391271170760702430730750400332161970351022000890521761211831612532291170971740212211521811910762531420810921621130552521121232121890951460631400601442330841260242360132251200962361930342322491821520652211091130071500881840500660160741022420481471530571341391480360170521021900721560980551882130050140250482010160201010412262062170881162341991781621141930931252061830641760661942281251160911710580200952250901171730870142280680722450030060541500931721591201410351220500480332310782520180881741671180821741372250340600882310160792092320640630512370651401081220480151670162280370361511090730371750110601460912502150430840510510700371121202390541921151041852330650751730102360041170760441461771731402232480342530571651581791111230340690561000640640321121481800811041200300852101541050711070081340402122051611450670971630882300401821731921992170200760892360881652121602181592041952011570352251072012100051351140062551240031152022061221502520380230462512011841400211590190751280260742150401881890291501782371341851970480530350261340040291320212281461051160400451500710201712382371830850070261860450660071981130380720730991830802130220511462181370781870600752100430052430332130201851130461840622150722392152022231952170982391261681310491520821852481311431261552421992081970872490791611062520020880152120760321690362381952321451982292081291470892312250580930050732051060900491481820902051752360072451640081871161242031971241830532310261762130581180632191951071271481840911520611720291341251330871021621371702062410720072252472171391152361150440312101022501421582130101992252461480242500810560741470881241490402340781020652410920570770640711931910660460930661712540540190311631232172320260092052221951160561761470680651531360491761841060520302390761572102461692261531621222060960391490401000410440950780551162330860562060682300730682500952330330120531832480060781261681932412362220230531102212030132440900062221331641630330180780382240972001980430912051352091330591581241072160902212050481141311462040072241271010742512272490020311411591390330941121131251411851390592292432241912001000421351750950971382480191180440870951680352251182330261592151760420612351021781222060130760430200652321832180492380821242431290432251860221430891181030900401771700151261080740620330471120630390522532202232102302280471040432362311770701250341452112062130921730810110972321560210561470220090120790772342201721810160731051190761292381971161271250102360752371900521681240742440550660460761010151762430340082542260510600872341681401162351220971890190750861112471222400922041751911091421030500611740081081810621892260831951011142100880330452400902391430641641402490231901631261062091301162351461110882390432101371801031002521071361100632100712090641341311480631102182100810961320321021162281452481641361222290230480970890952141260262300181300680831180070451251202430380330611650662122390740740730290861652451852401631571101231850311211111341541080852350970152400231482121700010261300902021670861602352230162432101790850230401292160761252270771410350691422110111412032371721260581411400082200442230420591982480831041040432030690662211551320481421031961280202281800861180812431292201060851651090891472192100420601460301831392480831581611941541860762490200040722402490330521601580842340160581390662130260250871722530680172060530280442032380881981541540271150121960730772082240350050231971370731851662280480500761432080030522131782050370980971390680821611640971941241251700722160342351770080602400890532070541930622151461071220190932261451740941361181882510290231381861000330891772211440280661270470230601760982202160731091572451491031570681571001591781602232310400211281132110112531970462441970741241411651650282461890750631410960561540902170310392090150840952442430042300770130422391092090710670070321791351002460591171271951310151870071661731291591740060101840131091422531422320900941832221242392140350801700181590880150852350670431750852400441620982310771310680072201230830761280261341700442180660812510682160582190071500721770250091681351172500760521421050802371791030311412052040621060172210622100930412292412381961340831212341050290120331970151621140641752540572141422082221821371631101901331570320880970721691170060360690330510241311742240541030612471172501692351411191760600142400772322182521630282552111012470111201350862470112081931222021180831280461841550521540510270110252290180842231300851261781670530070161091661991351450910960070400821112391101660521800352290622172441910681400031441182261351450700471381490091310232240541521032530532221390531330080661651881141502472070862271431750130840341472111111320020551120351900131661711680640981481961060551552102130371542250701521461760232262441051011782412472101880891071010070770180130572511220120432281320460861630831571820121001231591260611991620220560040650201051031182041260480962121320522490682061851450642451191510731111502401730812101701311672121030282211110051551502172411971761830451990171911160902512460410020482131870820140832270871320830721190530381502141041792162371170280271431601850611272041822080752052432471571351440192080261560480810680531580230720891181252542470322140190802250211101891571362480290600591330021822061071230591990851360381310630372180042422122150201642362231011711140541820071680380100182071051171401081181940320760151680911790281831480351401011791410340262200890862121221692460360522472030281390730511161041352261610110030351360700852411210811592290871360130532472150862410960960700811010952302320280360110731701981530870621111600281230110930840441080240961480030310461141981041551892461990831061691211930791171230160171652270081811941332340121860582252221852350981320080601991220500811280751621370682491960811381132340361451721211082052390180480372271512430131641562131110591061312460331900021561000520260140751762281680711240701240341231652210350051271922490621120052322070631731780481482171702150870800992240772260390800802241860531012190971151310191150550151701562221961752030310992521802250811730880051081160331011250290610681492060991742310341082171440650730312331292172330320491461520621281812002430970570120540980460580090921292461440722170190050351320800130751601601972430350480041601530630082240851202261711241802182121281860671961331860551961030971640930400481241130572391252450060841941821811551932042061272442410561632391721431760890060551090130131832392391182231981920020600830542010751811641910872212141481792020661202061352192471202390630962221100570570842131750262310362022351821791602220271441341940091490830251462480770361981650301621830121180591701191031961451690340341240972421750021792270200531660920052011662260640851021281000992301620180870461212401551840380762252110061631301581190610140232402540531782521011560880341740242461062410950721831180170421970051601110492501741531321920500442541761100700812330471250940721240320240032461911680681591210281761181620610432140490090071400502191532542221260830751320922250381630440971470961870501810061671920711752252470370501251241060091331342271432101801840152131890290560941530540762521050470200190110662251800051281100320970172401511772081820341892050991020360132172451531190262342492201361160360871072181751972031430511850672342460690800661522231430110050540141881530890580930111441962081991481770120770410701491841850511710272290560171382042422391442080550892071350691091511520382101161460860780830271251282180760120530071900931050542471850831631550111340850150520990490580892361361641130451891321130950380281211461062350502361140941570811790530371520850751111880621482171330511842201181232310890482540411092520770490860461731011140530430272400411761301640590611021971402292530431661442212061541251801472271530651102121131900320301640400031881490020981941270440701440600391912490330372122222371580371002200621901040171591071851832510052372051432511491441641800260031422231701980980590420351850831701481712490631601442132531060101532312450021612110480152330361201800792490761970451200612071321141161642340401622010421200982021232450741380051480891450221491351860381491062041491200652530971061051671782470281860110380572332171470842051021250842150482310731331601450180811420252421342012090491990801532260620441081922100940711981741711010132142450741961350761730460841890522412060701731501072441410510510231080661891540070510530482460760441501971850060020290632261722422130322060991200511520420140501531820921082010071522031641250350541361172351741471002551650500090411540870412361010082251742301981890020970051650650721042391090371230682091491071441460300502111342441970120331992541311531321471912422230891472391530090321021092240251700340870160382002541460862461970891682172100331510710540270101940470990600880710371751592461421182551272320860081481122400960702502351891921611321430260851161160311890422261182442410681910940800882291572391490201872461391710310141981120570132512010730710571560250661610910130470211862420850041102301161061961590622090320812341200092111850011690831991431761292322202320591061481650321112212071430740022221561712521400580520150310661711070750600441961130701042141820590780092312261430310052542392310270630091031752502461500850180231201952221760260872240080020550591760382212530460022110521540070611010960022240532380182521101312061282522491382121591752141720241611331801591630792362132450870532380041790240350942340830200420512481740170251581101891520752351751042052290090170330492340781242210060500181101020830221110671040740952100901090352440772291080151410071600081091350571092021630910600630970022312000932130980530980930132320222380090291210501861240200242191040811661330251681130670411282472332230151301401200132290661870120900682350920291870861492281760542141200911121132011191420170520710361812031242401961600521010791881271181012480600521651982421980152141272211750900380810240310810910461570821100381271501320590250830920852531052521430300120571372391160202510041802290410120891510132510500430752062061821482162522322070100531431382341940781361452030301751661290270392181941870050862391631550222261930542100310131591791651440491100342211951532240720380791841751531740882311812162202220021550030542150270260022281110070272001450280062481931492301960241150351991010030080941541491501872280590982311571661031300082020992151611040391170040241780631960730520670401370160951081942531101880581231300412092112212382040730542061631592531130260812332231730412031821172201480750260542301152242331251250550810670700881032490952021242022022340452380831400531731560161211340632130950940652480911732291801361010042091041222331011531422031850671750731550182081840331572300570910302531152401371002360151340131071600191940931251571260320850221011671291071852140082351522151812340160351840311220241412482131702011841171390541860810932411362120612151802061152322110060781890711992162150631821930480191611851061810762211162412100700210070561530780750651981890150680710030050031270971950551211750811500151660150531120802090632262501331591812522450152201482001011240441351222241441560280100051211841182441941642050092172452101411362241830140290180680782391671032190802510341160600851200160210520882190182261501062040671760321771382440651561410251570171250771251712371811561231521062460790851502171772221751280751382280231370300691090061640620681001001450632301851811570091640820841402100881561491180182521451920070801042250922421362191420960981270120791562241461500101531961130622232151590460761261142530122490851412111540600290450641631231442381491080611991690501231250731780842052390780520481702440551060941140852131461420040290150092521660722462051231100990890640762172450950952240322171262021710432411580060461412060891061702492410471751250661932251800621491752231532401470972052550212070090891491982220672282310261230262422481950841451361422100191212171030281400760650261630800631571821641261261280560472260621492401800820071181572520391111861970471801110610031101000071660300560340570522021662541421501162382181290142370241111910080331482460640291730502461651040951870890741262531682191581041440610622451361761540492081241970520842330432100202491930081172320212211280490391701500781031810951811360860280021922300101970201630650222121730070942022452281481590340880091122460332081151100950521940381740492280850011972110440021361720411021270651602320531600810312201130682040951651851790151291871690262010582520571822350771772110951421891510890462140720060092452020781622001160641570082360180881401491840202042101731630172541850110342412121280991282390781540810432310130631160090671391460280761602172022021821340460931761330510861142200321411902290621040450712411130341451292320690751240971362331370472071621480600190811991482171370671631530780192392060831782162031781390920521220240742290741632420702452360061511341121441080072421830301630470951851370251590472430630460381182020451360150962050052261041170330891362300761971181392001541411420841481062451731951910911600861821541600461540170680250492371232421532091460960271682461640012422070601020561930502362511492391742361912292111480911141320250130461211751672361610512011181730190921660302221271330020051402451722281910100810911111961130412232320451681151960261660221230631500760650041801450961450280191241041992091761371421410362191661961462270121000821510881851480540840751020221102361930130300710710881161700460750391222151662341431821812470561152360352481791491631111050782031361712281982300481081550350202542320851411121750302260931452381240310551062062391061142401952162072462292260162290382341071280562150520742180780442161570440122020560601350771051581830991340750612101831852162331572520102432521070131662360671351711620690621381392291670871280362090520251480930930181381651561500271762341941900180181431190961200490211480640740661901231700951380511431910240841541421050260121132472400891812192150862320622041140110140190680080240711182041360312341980080682232552500481061070751051631941700472320172460171580482121951511032290161521062531160650492310041060280710531032162061761181410041642520352550680311671300220190811300160120051620821640901471950982230680821091170041101142300531700101712451951691982301901630991151351120880601341080661542440550831862481690221870211971721410382490991811492010251782000880670140640570601050271480670901812081800782441500740060880732430670261662050401371691491981501840200810522060471971830250992352251100372231430601372292062400730220872141132141070760671162531112460501562132291190191321060490402541822120720650941001931411432010592322132510851290740010102431071571111322510601851620631100791151781590652002380860481480942491111102062541510501820732020810260261391700620020832201362312010461562061751382531111181101681010840950770142460092252050472251251220670980930781450050122242110480290551970721701450341910180590030330020221751990421271970762181201710022500310880540980391020620850902061040431421410411020071851001581172170212282480580371742541030911691422471971370961690561150020491132000261862410632221401180560602362000990642311300610711230990900732262060580712431472461781732271810710552201462472022180811181241310810141941242151421700040972062042140601320892011040562530480140050400060590102240561862100830161720891860571790720882192062250620401072071050230620632510442080392361070202461290192110412411440602131871322062041891092362401510090131732020120411491141110930721572401132032100350622121001900480962410970101920331761622300631261561760360952471450431401481401762432480041820022020781291722450540851751790270471520991580871811190241620290191920610020150821760901572461071000680111342312232101961982452192080752430071201031291992011541742431441390401500710991402310761931430180871890510430162320920532471862370581092072260652071800761021440450360660740960851200190410960920512031430511262180241821861910292520970131020300912290020531980320631090260141222451280391052350711850632312362050091061891510961330320721800420821271351041071100162520322191760420502431790501581180180121431162341881881570271300372512420550101111291960401841280821542241080951760310180091680480230662422320332431001232141030581700171222210730352471632080711022501942301520781061811022491492230191780641501721981140250440292040270480322482171251391990950331340252201180361341841261121991111121931141041120241312460360131771411922350972320772421422230512001860360440481062380680700581950600391352160871971960702030680842082351560521492111491812250521902481191562232091932501052402101230390102370212412322301411621280351281920252331381121700080810541301730072300370590570482142442272341661261501151710460121552322110931170452052030970121402500462260331050382010041981622162250741010911150830491200031850802212362331870862230241770911700961990180601040682442531101100700600141480340130711171270030162421291081051391251142401330660881522220282162251500501661890491690760490311590411141782430540460481260821272440061522262330401150020592340642100931010621542420541452081701511162491621422170452521140581171750691570732502260291032511170120742071250831191211312351201631770110511821130340492290150381320991920340771412371840341460712281481300281971812312210070230191880370080850320740770981290680931490731541071862471980490392222020991871150112100810201490290601881911642270481771080691481602010491381221032441891141161351110101681670751140920950821560182420580261332372420531391120610360512050641970532550260811781581061382112080782491751420871482110321671942552401022071631062001981441500830051292240871910301700261191712332132120841410620831390932452010282321250762120791380272171132250341121130671941662071151511981411090350742330651600571560771530041592100580111342132440770642111521020612442400130341501512021092442500710731690740802330451710151872152001262331690360181511822162460780980210561191621831300431060801471650590441341650991790692310930982300830761701870061680090311320341780501921780971820982430052230730951280702271960890340940490441020771340841751311850511351180031611090282360242250292451481152351561701642270161691730591370770720912301292540531830721070141621661001351451281452070800690471801540430810382480891231761880081901930782400560391261000682110942341311020610561111342332370421011800810120461721371322232510432151770820170871181911360551662022542090560992360062330390292122300841742070941800860920761940782120382491110760521370452360802490420422190791060021091160740480252380222510820660720740652142241491451801762372182041870130571731570221641890021670951611971032460971910330021480680531841750580271350921392211000642470991532220541321791341030111642532390741900991842040360352301471682471742371151511710672471561591610442191280511481361320651851120862352210851962211181330942061110401320940610160642410162050351930582012460792152350821402241900840602071952150910160200940121450210521401760041660721390052442501390381361030990330870511101740672250291201670470601542080570540501921272331190171780592062080922250691912200150102152421632381072261221580090962352501362331252002301521262122321272461071762531391631901531421602270271261730820090290210100300051940721002510131152402012120132030821162280130012441641200061312360672072010960620841980900110370181432070961430611480440532210021840112002261400140771010280661450301141390981271020811150692360831192080660981581610541410161061611141791150611401981270252010770331180011242211261991132340702412251340210251031841582391561500032181512300861661841590041471461932200260980912482441401012540181571630220710671791810702291620372502211460181440881200962302330922361871031011982520312050580941111190881320822482261691451712471050572121721101430430972421330612152531331441752481101371161580290351340181220992082491861922431112282230821491600881441270681780831650032031161030781271342540542220172530402501851301472221931832482080961941202221121690912141480800042011672492222052060782541262411602290912310932062080310040851831101521130090251810071360771561460411722160241831790820291012290391651030450392530821611851720770340631050291601070232061170331310701052090430350500680910161460180170961002301591272452301491981230771371361550541851501380100441352142120900831421721091471620471462331911402021641161262181020661811161070191320411281801911621241330431131030341600682092450052420692221851550192511100482302382190880291120280921741950440520481390211880290242411961530911360660051331711850530821302380912212290820690631210260881061690750652000500270631810042481341721402421680561491372112310821490630910842141332470940421192320052030412192131440511322040091592430102452111910672282300142410890422101252440701940641830072250561381732331861920370832271190221191620212162230391451801911102182451911521090951861300570730730972071341760130561862091291941380571120291111180690080481310840701500512462150162512350321070350892222461220962521312301680911651441041311921401250402381651840390611660160560862111972491311661892381960200320730421832541831180701951741390580181450580782011860571280210252542041672211722241890520381081851022261680980692181582212001620901850481571991240760040022200650030412380720900442301241882190892461310611811181311970971750411470440912442431120481281062070720750501102480111891361021421981931041812141462410421990200910511140911440391240420240770541781550690651340141722011491980351001141201152442472461290940950680180300960782500742030412111351860470732051361450121860711901961980741530161571062190731852130180950311760761782271671381532282470572111991981792211890421961520491360212501671350150251480420762480190141882191050820760062330060702042281341060541642191882291540690952510481060670910692252082071432422402260430701080081791791400962361112102240572442502071810921991631242081950191360531222052461570040501370832040960611550460781842432092351610481520990941961661592270441251451142411841751361190241821170680940640480331900560542270910070642372452231360791061190830480101951800641100501151861311311452142281670572271931200301170472130630771540420821652531280712151971160330740210181740061500702010430991912290321130351910442030892481130792011831252001242161111840540380821351900170841951381870220480561382410090371281542011261661561731822321550890472050411240511411461641110951232041062511501321121000702250070212440111500430231132432541492440381832410292291521120541761640540712211440162332061711251960761361631912210660471640041640491601020460251411950821421502092250870772060801181720421272121460831881080580150892552241491930480220721110531862330260950651891712540390020030492331880402232161460900350231930791900221411311280482270440170901880522241200991500202041871421560550860771232220320031661190522140690320050920751501590111491720991600592262240150661260970142490360282440892300790901870340052432171992332170571191872111011920442382290630631190211122460430660110301611382290031390191290890341732292011481211541990781041631252022010660342492431430950920171340971531240072350151691030122502010720531471960391962292471771682310850752542170081121381810631650281920221821981450150940080580440790190620561080431710152131181390212361182271441691502041490120501841242060832482191791511261001362090870280850761781310370510912400100722222311581670220501061162270271052430080741031590891580770411912421450312422250640130201270610852190532152111500511001101100081860541410390292401881021460400370081411520411542461371921940960612171920461000191671500800610551840060621241630820531821822361632411601450941041260881020561231150631790370662541550371980812390631562190411161281880391621490671682531500021201780090172290521170020372350241112021482052401400071602412101222020441880752461672321371631680361741031960741292350790351462230710711460922051770240911440860601861880671201171411971580171140110271181402040800102130490931121812081550131141202291151490660482380080381120750380800850051920811572190940381481362360242542170570101972051571631802301491352500021451040071292151712491742550950791821522422330471660031132111332100302312491310172371241270141000041102501661212361881341510942102351132270060121380260851450972410691121621281510250781521851461930592480392250260262500770091520510220940902272191930880610281382042221780682200110351680902291261571130701471110621460360890571150700101211740180762160202061020492101351400302060690571151520811662391932302191190681921810080840151301930052361221331700410851002381670381721980641111852201471142062201102440820880531090912192141231760741130502041261830482031141761042141612042000541130900790911491082132091340940941852301561550800621000041461282260581142021830311051792341342101362282032372161292191400672190912110241430241040512512370670340741151391261621042490790340810191470570850280911771451041421900490080481661340690531470371232462541001860651012110781030191281131390122120400111341831372182280072351491960240151520381342341610932530220462511212450270672012390930550730082340821930761840331242040521370042410500841761081000490051800392260320511391051642061572301591901980300212190661150371532330071702520930301451161471700262550060820301291920031062290871911340990650582211810221622060511782110570831200730851661181631120822531210461661592020580381871511050080891022300760890380881261341301122141911172052051831181050210940211140750840702492341060660230441640990550900762170322492541190611761982400660431381270730211920222112451351962021081200820601060681360352390451151831651380701930820210511182002541191880372040821310661920671322221161950030801670432401392491222251072121992181210690541280880391232472462342102012132461982552001932292391001190432280471600360700940222172211950900351912511440850422201820460931422491742061330930431332001352260282171050921290421920131751961720461600940351881822110580071262320042451022241260600340150870301702181361710312021081810411932502540330290422081840352421620700410391080060871890300302190911611580151960321182052421800181190220821471551992062371402430980822450551100092101872330460580610602532221952000341930080661791720261570781192190631310872430081971300351381662490321840961231871011441980081882211372542420822301840252070731000040541010612240772332480601570750952111010181270891312190691810092520441711080600701951220752541100850420282101011411021430810312151482061171140022501742390520090872272492330960250250650930561301672201950170900730581431371661412501902011320550431411111980621110420172190640072121551302162240880391451640152381681152530082271671260960160850642190490391132200880591651120652172372191201040960451980382450081721481830211311321251150070522381960231310061810281452472230631060732541750620081432392190390310380031570310852050082221990861460291630871490290830060351371401800210781571541381121090151702330672430212060602470951180831851430640112420672011190600220410522291851970760941361472060921170341012530180610292410150510662372390990571170501210681831791250360980100731560320451642381171831400932211860710420210131620782380521722330551302461690641591322231881301121320512070760850502330320411582330732192082401541070192410862181561591371650151210801240252501850841030810132490311590792380262050201131541471272491861131680780991991310440380511121861592302470030321070822442080521870021990450800762091211992390682050550741741380512150501561122181961392220512052320832460851702340511051462492432202222281782462541090691581920250431770091230651052112140020922151100341180470571381562161780362310042120530392480460120331590100141841231250550322370430421970872341851110731092542482312431381070671341000740241031901912311902161880071641291680651951670780692052301791721770090290491431250862320920271841731051661210351300292062480421931960320280020691151950101611071192030800900731542532231230330860760961381331571442440491320950210731910700580850332090750910471890022071262470120210990910402081870321981140041901880650831992512450831231760442271851360151712521230840670660170571171471540271371550162342190750502170861130521392381262201802260711772310931481000811140211671650630641841191262210850141771351811461171402452191452502241270420181091822221670490892310551141022110710681320640791430841452241931401282220732071260692410060431830841831931980770910121711090912460690521872341452540730251230981971701081822380271741910631890832271322000472102042201990541382011520601852511770051880630400450591341342091060431230461382452540130342500220440900411471462071431920422540691152291531152290620182300531900632410402261802521201471131532522250320501260690621910630780440400180201722362521841531812260621251980790201762462361920081160921100071431970590401510750322451302422031862311802200201770860811452340541811391352092510121740340191852470991840610250701780940500260052121012020861980031822171760161640811941232141361421981100270361270720781592011450812531240750411602101750730851532122362521711070151511251551401212221840860761592500051300372150591510332511820141291111082110860701801702130570471880830541030320651591891971062481790810170670651141831160240292022400572520161352042470080932102031491152491292040340512441410872050941712520301600301791720162490641831461551631371510631671822382250421181041950670911821362180911161760241620401371161090181280771331012211811881780132030781351331732281101090050380061970132050701380570341231952540070712330531940682341510770920412020841711330422310920470800081831090660541322100050681782180982361760752021401621440020780412492080211200082262491790350221772510601221900700111551441530661930401000410502321700100141421991210811642340340970170140252170830200202390680940560091761940450332511311381540900570551501100060591830250530462050092360501662521120462230030250870830131902340821240170682500621041030391971421971940492001031791161020890171961432232121510821271870080210751092381820472040712442491521340281522540240300692470321811850100301981432122032491632171131430851210332261370032061410201371640671130641241221172520140432012092460161292190901501300562151650212401870060882362050412041921221572521822461691261202261252291531390111941491140660871412350041060901712491740931322071291211420481660772060271220691620280322510661632061480600591011280790730861141700770372192120601850762200870051621422151620330821181032410432440331111172241960091740250441351140941530570892490161242040802521552400292270771731131710241701901721212361052412460662320860280592041680880110960072091032110791221271791952131471872451600170392060430281100761702121230470281190141522272350420771120601630760150271892101942162211070341111252361590381030971992101450770242121321462460530570552231121740641522521470840080411251371572381921271381491761020872300080950710092171351021772411201531441330410310232232140830290240580170562230940960631371620361110732330200460800101200992472200371961850500682141960171741760620541641520400192401421222121050621200511051162191101060381082421350580561030170380952470690111810751630081411661110482451160662360240550560610340372250561270850831382520400640731661931670311590942471361601782211391170772021061720380272480880902082342082482501061660211311861980671141631152401241350111780061970591171901181000911491910851070381930290191591031960362161832280971831610582060931652011460442140041192392191830481920691571810460042450882460921871170910200600130070040820340860590900140480271542420550230381051960870962221980461881711851860761452180652162010591270300801360281331810432400490740092530541911960992061421090742500980022442292062360481800891120271820872511601641861081031411591160742432271610410672380380982160501782082130930700110091500151842222022082181001041661920191280480622300912511362181980350351470892060572271570891331210111090032140151301892451090691542220550171811080341540182160991250281211401140911020520201281832310621722120361240741451801270180690801632061170080862440851150872191870710622421691181652510351192440121051641000310332341892501952241812272120261661790040851841341051661622451360351402151061881410842202330691981122200172470461731960831110860920750220171151741450122160260901691740801961901230360502001571222221500871190291220621881001251482161441970850910320580202462341951391040171530091961812090112160512190100370482150680171972510610730122280550340091712441402500130432190450022022542411811360470371511561112351250101531131301730411852200620100871240601360101431541340540611000531511570200521330890310671161701751680302092170751990110781850772211850701072361982311150330571951600800711940790831450952321382182092021050660512531292211242130180330440672091622371752121220381132401520380320220081170580151081530472300252270812420322051151711520150951782462270650700552190571581570670311602102021641951831160492340151861721230960620572140691281121111911361250670951270111551950830131320992191911221201620851682381841720642302161410310940962471110482201361191950260091690141721280201121571512361131760680451831031030912221182301590831872031351532340961750810631592311101492521710520711342230381111290890141350352470080571392021020672490722181562261381640640090332140051701351930602530550520142192480130081152242112101000650200331691582520650702421711241320641622052480782140270710600410432280722081140431671220750502352030481262501960491221240751171020342531261011442261530491121090051331120110232021590650400060380712072510491411620851812372280192420242390860100600351872371461221360910390460151402230372142541672221922542261100942411691590382411240251401991190430391310152360261592052030050862211022270611761941881202290150162192210210862051940610040760351960681251870210300131930881390410601160920090791271011352041482111020122170671691970151820720641351210791502112180711390782480592531692492120451520780640360080890340740590570681050930862190371761932351660450621231080420531890771490120092221670541582480731200520350801410950010551582291822030341071991140712220461902321500550260432431651152392492292471740300992050622271771211561170572071591232000311210851222340621372202162220200921532372230462532021821480430671200071291411941451082360281151260241751881241012242511700312100372051312440661542470532371651130070812092200221620082060650850441952180050621451170092321300792481920891741950580461471670860900610812171271670742140231371370092372200741632241910082032512310191151210312390851811061232391961961022360260881122402141602210440912112072320020701751710121341500310312212200010970451681902451711670100432272342381271641761510151390101952451332461480560771592351951012201842391970700052482510371230981422131601502331850782531021201882092050580890941020042031090411131650941731741960461570332480790682360470970791381881720332531571410450081781132210262441491400242101530291431441601960281120860781651710871290752482541761940261591991172081230381610780702071292471932161430592052510312470240191000531720350940020631512161040751230601371370942411112541200361511720290432312441502532371402272310260661611180950920431231552421881650042442501771571641191191470321791431201131682052340271490111322010560691720150250900520440390530332250182050061610910230322191981150170440681441901830620740592482260942322161741491672092110032051511940511900291781340802130340030222001511990960731601630840090451321292041461852500071962080272321041750161151081101982430100450701580882351412021510301610670201681531412280112220591520501672391580081331920171580190081261631910330820361780880622081010910710820440821802142390030532470920581540891040260812072390991342151882490800542131782350171040670880760490890812182090770401931561201330231091161632012022401841630071471581792081040020810220972441230281370740800842011352452211950702171441490602040330400370752441401761930731162020471730710862520710682140321271872261052021241202320191510810150342431302290311891590942281761131210521111920811042291860741710742222030261391811682541930800471000320321221842282421652411952161861342331101362271651630632400842441490522140030982321580980440070391381602280421450200431311781372431680120922362100591250220020490321962140891900751500591010100712172061841132330840601422360331671382491871572281562100800590482431060782541391640650741090751200611111881491232492420651942150150802471510460631562490231410930100631201440161022402522030121711090770521670430611740401000612382150891132000990941450070831820630472041080032191000260062450081072512451231861671350951831751302070502010651272360640570272211100710521242552201330432501101730612480500942400471000362220690261021131591062050292222152390242461660450862020150712052451222252272081910700240550502072321531021202361950780950601752471562070172110101030281142201240341302401171452542192540331550450050472390781941510690460790701830181892120270471601492172091040872480660842180740581160920500392052300832132420050240052401361811321570820861630261901301350910821081102072012210540151990350991961342330651781920550991270540992461031121392392501410050791671450842270601052050602390500620551322301930930552312291471141450700531220561600880510091502240470420861552000881941231842362472241800112042191752330832240381560200910322340030940372131982082041801790521350912030872051220562092130160671190211440851940851430931892130362481392361022481352092152410032030670642081950682002461090521601021301091080222401792180142281510532291350630621412301871080551562541912471291530440950601190322020290670261962181451520990030482141851240020871701591950240812410550421460202260180540701580850171650342391920802000420080491310550951870862380441981710042350551632200942270261520420940720351561441520380680920291001902052182270771610091171071401430700610101000802082082380082460591272391051001292180632302430701650120770480562281420911350630960162181252322030210252361770151330590671560782110160760850461771171601652021410630270242231480252021392450730812370722092330880962261881771851302090812310200082161582051311952230120151171731900972030890632290032090881311792010700111071782112151080102260450642201790862502072142131601172350252081950370280700980890220321361391002501110480371541200260701652491431310870550992250181740771210181480741701040971820980251310551611322162241071950171061312202380102151002251561430460502361592221600231532190830020150630080150790872490532070320502472420160651450860801271920420752412432311140902490220791630871400672430980251910151852401340331651720750101371900831351191092340101561420461321130281152531621590931320161012221401661140322121301862281051251000842361391440531281692431260051450701262000711842101930030502120720731711600180800970441741111692180910322040911640612082041690392161091701961610941800780501580362411600141541332202422460570141490971321460240371762542541242421171750680930222311401891820972432241980680800390762170020231900722032461790440030942080551982170612341032231040320920242490222210891210352370910891922341651261681330642542022252142010881670210390370680992061792140681990410780941400360560240720950460371100471641791151101650492431400690850642121351010600311720401640751311340172250150882420730640341570661012512020182030341460750660540731590951782180242222482180651600052160681861912191681131550770090701881610021650290331971582100330611610732070541540520951712452391350450230892171480261151450151402242101081321741891900141350551741741530611160572220440930921622002012300111721812460191531980932390481721071111872200121052492142052482011760172471401961700441081040681830521602050092480961920450960550192440142021601560101581170652040510530491922160722161862470100171040471200722271192432170132231560112111690802041951651862280070431622270921351830340271571241100211571701082510310372141152291580411831742341701462370992330810241250442500311570552250890140830532171280601421140881391432230320991341180281632190201940301341470390160170410961730062320391601401642262241600321621252091580672210220821881811351720472181861151762182130641991450871331730950710082010231041881432020600880050892101392521270412460731050701221621201771561050202050971201061950240931331391430532090861061741521980911152491751770740560951761331111072300031111481342310151712030201271300671391980760102170230911530301151462480541172441060520872220430740301730082190020881971691821061420252161090310911071212050962362532540831920862160800371460742101870182142050051292322002540462082000851602452192400681551221992331991481040471731002471361320481772450570661360502131660232330152021870681550011430612071160922281300530691542050681330541051111910431452331520662080211550482352391620171831720071820761461862100621611180170781812190561951061781580981522312450060741481881660932251162061410802451860380481772410470601622001550732102450091441411812451230951621260391552480111012540371011632012341301120571122001691480202050392002122261712121741220781430541391302521032030781112230490682361850151742101310920080451252261021240070041041520980421642100700041431911782071030301712141060062211280211300482071682060710110600750921751241210620151701761301681570262510900432441001100390540761682270751362120421831502191191521541612370672420801620320791392021171670720530991872491461910261872042430930341450732291090810920381040932352300111862501510332381800250722141491901120960951141680542510881990740230292350691471081550270531490241520801451751441140490952541830370850630770691520041530922281201220491330951700512141901121621112451862192232530542461470251241601930061650780631601710202471711610681420641241402340861900770990481661001722541881580172160172301181010701401731681941261660781061310700681310650832161640981871112370132530891821922130651991681930951950461302020942471021330282292470170931450500840120532162262001840650160300671111682040062322501870510821142172310830171671450640890280850071580762052072390480961232021250570021380680901661531151831092100140280511460292420501031091651421930401781181210970332490941340790480750962121952462120551201371311702142080410540451660181401020550322310950092232350500922031640321301530200880732342150591690631710131821081111551210532500470611930460831510821180411841352020401410682490030570331252050221112060091200671102121471332140201310692271651761442291450991241640292520052161740970210762512522522240570352351701051330331850710671592000441812271590240060321811640771211750550041422210331811760180370441790291821522171690620062040161270020712451761521381202451340230140540991921591571972390051111071220212101571742101452520390831681321580671412150971320430291840411462170170991061130261541050072500590220691671900122012300420650250781510310751410222450451650562482100172372221430401452511270142440560680411720452491191500762340262441111851572260030702500750372110761691690971362231390821371441171011340930850600751682360930751521321590251911701740520840891070092012400870270691850991551861672401480681700760631211330071990022011521261822522380110892520801522171771942291702161112501842322371111070662112362081401201860520101601980670761321391390031041672020161641000772532090441991320430071350411981111601302040160511760990621640820611912441250890360460640230080471530602430390052220420611781241921961571692472492340510971651320112031880891041251621951310351031871910171641540931902020760961592101531780581382531882191231112480701570492362520301502111621661682260490251780431881262490631610730690950020140911520231252002121140970891771362041600491590430621381950151821700501661421780731660462190732040970411942230071372141620640782361551700531821250210340751150381072111742170851711771090942071000901382310110071711151900870451701682360192220092402351760732332190220940632150170641781520780970100262301460012001531361452302371830150090192361590820912471592240631431850341981961110641821261112192402232360450771431852532150100061091982231670601181841951651762130412180450590592471310521611620040771731721101150140460380940962410062250681361241710130591701340202451732371162411530280811401920400581212070552121571881701531380870770321630200052361502210201362420070121510930440982072350722372332301232171381201831621251631580070022312530932500831540201322201122211052061270740452111982500601000970602502222272341060310550740452090421732340032301891812391301131352340711631121682030081341530040632201260440230152041522401781561490290691380361521701901222541221871411430210460180352320420161190751901582021562201982111180720911130732181471561130820781831090760700810242410561170201670580382011851691900670560431600222100801901832082481280091811361932011461751741801460891530440270431651590542001892020152221912231340300791311330060891291020211090431110352260541660141730432441012221750312091190461192260880501491721470011400232422451921670630132220291361422470372081950371462460641740100330382421590312082200110572112541200601322542051791482480390441540442100300242370651600351801622182320451262251911701480570021232111630660591400730781262300490220182100472340151250912282520091940611702472102160730960210940600522280451611710941711671750900790122050772300742172201422021150971502191442381870381732261612210980492280032361811651520811931730362332230891441170882180912321471640910151292481931211121851661611961281830291222110951762371171201110311261160701350231642412161572320711020560440562311961480730811141701082152042262280790701661322340451542510961730521840411812402411310560782232250641840061340481852071930191212371881071400182511641201370070940561920340951781590461021101060310691601810201092200211061770492130472471750790931061102242080692070630291861051240860951340872391851831501701112160321041042241221542541291640650392020160241142001170532540072470940601530180970990730291011031470160651261522091902132302311751201860841012320481901331230841380791572140741371710271161541640561942191602221261790542030482050051092070081020790861021901120191470771330720531691162080962440182081541041350931611562102191551810782510700361951471221500302551991710230121421850251441382100320691561981781590671921370491111451911911952172380470460402451171990361210661880141612470390922020250261740322290050451131480300400622392391100251000381480450121271561821320300060180600730620471580961842382340072481071050790140991091402451702512141240450161401010320092500210110341682231450711521170110732480111230811982120910541070011340982022552222020361851940681552431632111311481722450120071531551880561650642530492110392121560280182451610591361961322140952421101261651570282050902192001620730121991760371531180900072140871501361250951870470340631290691511440221271760670232040742141820750610430402220542520372370680191531240421620991291540082480840901521870650801020090070691011870751241892430960031580120231241360661050892051202310672061321060480832551681170571042261191041671642261431762500571742102210630662030210030081312332200322431892460910260451331220961911461771461590092511070880751111300930740410500270122162222300802220360311980981850751500610030970481361951931191010551920531380582230490500381020791591201762031322131561970460861082281812432472052210882141131982471832460211631860900871062491911600122220442350080040930561260352182371671480310700461701352481252232230981652370782531382332531041772050981571091290601450782022260641711752380801450690690861250190310360391331872102270160932160881070661910641872520500671992501760610552182552461581360690200060320811791340320882071410961480381100650740950201341421540200230252220810611331791200451590500851970771052510380700831060032261551581330052390370512430171511171420530340290782210260252301040550220450681742301240231860691640241681201940921052050581362161650912451422312152090491870940190111831100811712310091481782001730410581910390601370742351882001320571672420530170172150070191602270061651432231881380082101070162100331310401482010842251650931541060431060961761731312411021440891382311842391770081911651860400192241981770201280400481330721110260250991531541351432070501710582220111722380380702232450940431332380841880911251341992231970261930151030771042271181670371061890551150910431420920860892392460890850141850850721121781731241460490980042140842461602391331572421701622161300620520061731970051110271972061001600370682202140971970190262411580900781632021710341581240310590201211400311700650350701102421870310300281870701101702381952370732520881012090760761911021600541882242331181172241350562430461161371471550770631561481832330291250391030642300840351570120340822490470831341170110201360040951061590692190240061051241560230811450070821691460631160561410882060681572400550762211721872172391342102330021601581962390592371671331981282462292290471960112012241281741742191480760942120200932100361540800872121160540510432241701490831381561882222202341541872151201190840781300450301242432201700181010891251682490642331150802541881572021752300640651121032180751631120341131201252000582151542301040612490831840901002451040300671650070631842361652301410840831301150241221220600640501500781560710490790571941601410961682080282312340960691191201851430640021810330500350712342481862531561732330511451711011631011802241501850472330641750810180141372130732151041620900640500870490400851381620180542441481291181522411730420630180651120730502350970050130160820290570321631201481251882460930630662242261280271530361792530141011241401680870881701990092382470682540590711662360700891321712201151931642320400540871631592252340780940891600630880211132501851822320721620610722131570911680730950770950722310251231921771540561120951720821870530222070370572252502311381761651902301670561742411031381240790532132321950772251020292040872180151520541421692510530301702121150511361152301950591732160520810491281460100330801791961422131960351410230491460532022401002481071042461010961970812451871810040641430540371380090930340870402530810080352410020471140220451070892001120481680571601610150851802210150230420882002171732181741410980532080140400500192392362011470612021190611132000341620541211451950901360991280212542082261061191632220680561770240701721272510480270641720311050991331060660892320350021310590030932382291450911180300792170652071651000840830590921862131750711850812382111461141810252340390671052421081000371460150381831601261542482001512140921601312080900831561462260901162292020251631120641652171420481450261171262161691221690670880050771541421131601312550442221560420780820641371140402162112300960510381312010670481730092470161141262251002431200450732161971200631412321081281792360771742162180570600501361371062462260821001170660040730591630221491470910832050340641641731451810210652422112350271302211440441952510791372421041841931530181640112020950570101621780532041180080521061082250200690261590600101480592350662530311452401812322361711551260160701430532522490121280051260690632350240400910441912370080201630162180622220840800292361341192250391870252130181241721870992421931012512212241920080592500451991712111350651701930040580340740112181730270151701461850720070381981500931532101620630540162311432530311181341211101191951321951320701880700241172081790780551820841482360320780880642291402310751531790611441172452121902471141582220051511672231470921681082051632262170740750421521621590731302360920460090482001561362061890042201782280671260370550722260040222540370831512291342230391082520521362160210081341920672381000991640401850700972231601270870730590141291680311020710841310070851342500310151481180161201970110301941962251762230211710360700061200300541132542310210381422060432490732111011841021241302271982020442380111011300411941401520050981661962041351730930121841961751100360581650071470451431811860481670481761732270432441532060660622010600071182460670300610291301072110100701110690880182062160750671560260412081282462332430360152070060490640031671261991361781861130361352340811551322310402210132151441540182440350341411781600990221360502451560850052421951621890182022321202390072130772121282531940901380422271180201840280372041180281662160340841870880440370940570591541612140792150660711481980831780882022371561200730702401450761741942451681222371240801282222110221202040260551270191120111610200541490521050841800851241921792091481570110480231252000860900131231231550061630890480341762090711160412230681400261080060670560860631230871982002171141240780361660312542262202431530061090531380761171522521162501500321531371541340980870910570851560432050641781762370172201540492101271061722490881062310362390541981402432371870830542480181302341950890370610382212380392432422251100490060591491630460851850432402371031432411441390362222352170521990872310261572201080922141362121352200471801410060041072500591532090611520321290620191472490751481061221021082142411831611820642430831391782211290632111281751372340530381221320971840311810552220470732440801060500351970980730030232152120070161412491720120121391740132312002131201372401160031310392160270780811212442261091212062020541141491491580952081770580710892120331390750701060602041961490710611532301891191170761010201792452532160950030791771752151521661791231681490592340500641801961130830841671380141070032421331430780602231051742191861421361331161991331250700161431840972480990260570342071271270741380202350451960301021460021751961132222140360961711871130781551210320550191381451790471131791960371710760920172030780300811060320542340220960912010810420880882000072150991421650861112032372082411182041500060381981592441002010691491341920161310060120282112260340081491131631240912050261400552511731160960161492311310070152061050930420472350971281981810421780771461720430861092122040501930550152022271530821920691991711612541161310681931720970400840890330041922090941692291030101662381000892240040720400472170090492242000990231742161001600260261640751690512402402402381962341320070680220301372112461462021971291772030320910921982080631230582050850871711062221520581261960410091121660732171530781180910761931141982402442060591851110781841881711191770930792221021851450470742201272261761021250721921022192422301541201161612350521822541360772521461942342060220920230781621571772530651931042070480731952510831721711392252391351921512340461632220592141192091152172501770951211781391281792071652491291061412160261320231961751850560040260720321390521240080660141180792030800570871410691541392350262382071940611782152400870622332350360320780122432481260621791000830161080370080231031260281540441080492391082262521241911771001771620520560081670181651651881640792451212432102511002492090162540590671512540991842331022090340410080351691211812280500742462272381442211800980381161000410622191302421191310480561231051690930061132241481812332070040180222251060940300821251010901481301070180941920530550160681671752260511700950471432300260541730022362411131690020461181991660491330521390202091901590370031070161481762151501511891340041710981922471521642112120711422060900731502370250492262250221070581620512110302431731662431210902132390781781971742281751072031240940451340890720380642191222040630922460072542401750991642100880980621700570841930211381322361442410890631760950351791590950601420171860520450402390721382240750552241790032130701522060791010712481310142451150471051431891671981801500360432512281251581602482212130141921030550792541071161780430681611022101011162501700150850510291542281242540221781532192521081521820192232000502130881271551712541181160101361911942361821911091320172080391921291750170720182191211850091311801150370701621570190682481170880321320631061690452001250801801532241812360202060950311561631122141952050420140831222070982381761791530191352442311320811072070082101780780801031841612051510241561140141591600731591321572352300241090771871052431030700852070500540011791000560491882430131531540040250511790920171300540210251271601911790981872231120370822211630910852500380512081840762061982102442412130061682332411081971451721132320591680331420451892172170571841460750930982170870661120692182490791002180880481881792091671201640880610100201342100320300792471020452090400730261332440240761441270912490070641601941890922481540872030552220052401832231330591171741541330192402121381700040330341091150271210880841660900341962330191101250872170451122351171260641300130301250451200962231171870490590340951271280651771291540531560250840800701192541080591152081121161130661952522190180670961721961010970642470092471581662352470310881281952122480050490222222550320622552001570792131011640690130560190341200492451490590122080992031231790690840931891941970160020801511412161121691480600861072132290650422071841942121790311630831662011762491642351430641100800771790380090551130332502120981000290101951710930660210641141430180160850492550860272302011421862021120942070210341202370491482021361781200570560091591932041810891850450400110420251611120391680191812062321710142490560441900321541390712282471521660162221361492080332410642050650651640122341961092151332061850032050462291161080781531980491210532282201302272170290270260261580721650241121320350061920960300930262081320920792002350421752512031761991911900771141511900750540111170891601522442052021330460900450811842150842532081400712492391790571830921540680150970210582260990251611930271470411220200290470321781372200280410280451440921831662450091950352500811961292381451802082241361382192550551410810092091942551481442101280780090191651371670170030730021852522150430030190021031331411941960680201222011052240190900961231440891740601981780311062211302510540790790180252121081701730432122490111641120592330681461430120100790602200521462000210752071562400431882492361411600360080722431501470702550900921211141812041181651531752372361451902080130941602191510802020941560211340620061511941810560020260151451070290582361421072000840380600582520281830462380960281650292020660561301281560831661790630490562190631782510172102050291612050582121311812451221852010562311632162220811412230280231311880150601202